/**
  ******************************************************************************
  * @file    network_data_params.c
  * @author  AST Embedded Analytics Research Platform
  * @date    Mon Aug 12 12:35:19 2024
  * @brief   AI Tool Automatic Code Generator for Embedded NN computing
  ******************************************************************************
  * Copyright (c) 2024 STMicroelectronics.
  * All rights reserved.
  *
  * This software is licensed under terms that can be found in the LICENSE file
  * in the root directory of this software component.
  * If no LICENSE file comes with this software, it is provided AS-IS.
  ******************************************************************************
  */

#include "network_data_params.h"


/**  Activations Section  ****************************************************/
ai_handle g_network_activations_table[1 + 2] = {
  AI_HANDLE_PTR(AI_MAGIC_MARKER),
  AI_HANDLE_PTR(NULL),
  AI_HANDLE_PTR(AI_MAGIC_MARKER),
};




/**  Weights Section  ********************************************************/
AI_ALIGNED(32)
const ai_u64 s_network_weights_array_u64[2353] = {
  0xbec4f6fc3f351acbU, 0x3e6e9323be8626e7U, 0xbca1ea14be4ea7a3U, 0xbe15cd8b3e661035U,
  0xbecfcc20be748544U, 0x3e07cd86bdc08d26U, 0xbec5ed9a3d4a553aU, 0xbd3977a13eaaa9caU,
  0x3dc7a1813e8ed651U, 0x3e4ec0c4bea2884aU, 0x3f14f2e9bd9ed750U, 0x3f80b2d0bea7ef2bU,
  0xbf38fa893efba7ccU, 0x3f2ace7b3da44d54U, 0x3f0e0a1e3e9d4edaU, 0xbf1c857e3e4bf94fU,
  0x3e21032cbe2e0e63U, 0x3eb1d8133e7a1c12U, 0xbf724f343f3abab4U, 0x3dcdc0ea3f196053U,
  0xbd07fcb1be24e1e8U, 0xbe82a6913eb80cf8U, 0x3e15e622bf03110aU, 0xbda14edd3970a550U,
  0xbecd68de3e57785fU, 0x3eb69afbbebf7480U, 0xbeb439323f141d74U, 0x3e23fe753de4c2b0U,
  0xbdfc2a413d0648fdU, 0x3e26de98bf3190aaU, 0x3d6a50d3bdcfcd5eU, 0xbe2439163d4429ddU,
  0xbe885df5bec7033bU, 0xbe7eaf60be9bd514U, 0xbd6b198a3e6b5845U, 0xbd8bde773eb8f938U,
  0xbf1bc6963e7fc9d3U, 0xbdd18f88bd38db97U, 0xbe5b131abee42e9cU, 0xbe8f76b0bd695514U,
  0x3e5f23b2bea10513U, 0x3f1e8a91bedf1a8aU, 0xbd9cf4d7bd393870U, 0x3e17a89fbd1f2b2aU,
  0x3e81ae0d3eb21c78U, 0xbe9699abbe24518aU, 0x3f351766befbe61cU, 0x3c324fcd3e1a9a0aU,
  0xbf2beb583cac9472U, 0x3e7ce1783f023e7dU, 0x3ead9fe93ea54c6bU, 0x3f0c5ca03ef344e6U,
  0xbdbc7fc9be89bf26U, 0xbc573b3abdf252fcU, 0xbe74418cbdd3dc72U, 0x3e15c9b33f000695U,
  0xbec6b9fbbd6ae4fbU, 0x3e8d357c3e11d6b4U, 0x3e37830fbed2742fU, 0xbea1d4d73e933001U,
  0xbe48e808bf1a5b3aU, 0xbde501753e31b619U, 0x3f087757beb267f1U, 0xbe53c998bef860bdU,
  0xbeb399c9bb79dadfU, 0x3e6b1bb7be84acb6U, 0x3dc8dd1d3eec30efU, 0x3d73bb8d3e0d22dbU,
  0x3e42354fbe21b277U, 0x3e662e2ebef6062eU, 0xbeca7d0dbe3955d8U, 0x3e72419bbe11db1dU,
  0x3e7a93c1be9f8c96U, 0x3e43c3c63df557feU, 0x3db2793fbdfd5150U, 0x3e87c02dbd9c7dd1U,
  0x3db73bf23ee07175U, 0xbecba7aabf51d7d8U, 0xbedd01eb3efaddc9U, 0x3f559c99be27ba1fU,
  0xbee97a993e65f417U, 0xbde4c2453ac14e2cU, 0xbcf2ecedbe9d8564U, 0xbf0df107bd9ca304U,
  0x3e31f8603d8a586aU, 0x3ebb98dcbf0a4f4eU, 0xbf09bb26bd1ca807U, 0xbf03863cbe568ff0U,
  0xbe1d7dc7bde0dc60U, 0xbe76d808bca3b4a2U, 0x3e5126febe92f987U, 0xbf2b31b6be984987U,
  0xbea4f28ebd070592U, 0xbea47564bdeb89c8U, 0x3df5f58fbe510691U, 0xbe82e1313d19ca02U,
  0x3e7eb20b3ea88b7cU, 0xbe70a663be9b9a01U, 0x3e5a8173bce3384eU, 0x3e677961be907eafU,
  0x3e943e7e3eea033aU, 0x3ea5be77becc9bbaU, 0xbf2477bb3f418a55U, 0x3cdfc2c23b8ca163U,
  0x3e26b3d7bed26acbU, 0xbe3acababe060038U, 0x3e883e30be3bb0bdU, 0xbf007165be44c531U,
  0xbd8a194fbea20c27U, 0x3e59c404bde356f0U, 0xbd4d27f13e5c29d4U, 0xbeaaab803f31cd3aU,
  0x3ea4d55f3e8a52e1U, 0x3e906fccbefe77e1U, 0xbeb666aa3ee737c3U, 0xbf0a70a5bcfe7ccfU,
  0xbd86f6bcbd2d6e30U, 0x3e9a224e3e90410bU, 0x3eb0a58ebeaeaa89U, 0x3e9834a1befb1775U,
  0x3dc6cdd43edc36daU, 0x3e063e8bbe34aebbU, 0xbed251d5beb1ccfdU, 0xbf31de2b3eb1dc80U,
  0xbdbd25c1be87ff8bU, 0x3f1adeb7bdb45e5aU, 0x3dce7955be360dfaU, 0xbf0d61ebbecd0e53U,
  0x3f02f549bd7061b3U, 0x3d9f75f4bdb5e573U, 0x3dfdaeaf3e1d6132U, 0x3d50b7dcbe1d4eddU,
  0xbdbfff44bf191355U, 0xbe657e0a3f060052U, 0x3e796072bf59ef4eU, 0xbde8b37ebe8b65e4U,
  0x3ec68e9abd46fbb1U, 0xbdfdfe88bd0d7b7fU, 0xbf143689bdb7beecU, 0xbe7961753d88d21eU,
  0xbea28a3cbe29c0d5U, 0x3eafddf1be5610a8U, 0x3ee4839ebea3127eU, 0xbdc53eb7be366e02U,
  0x3ec08e53bdf0c739U, 0xbdc0a918bf0a46baU, 0xbe726fe63e3246c2U, 0xbe7f7b4f3f30ca68U,
  0xbe5d89eebec1f058U, 0x3e2e07513daf42ccU, 0xbe4215f83d09e354U, 0x3e35f7b1bede0e2cU,
  0x3e0c7c8cbeb097e2U, 0xbe9876ae3f273c76U, 0x3e9f18a93f783a43U, 0x3ecd76f8bf3ae783U,
  0x3e73835e3ef268b6U, 0x3e4297773eb54c9bU, 0xbe892f343e8e0aa4U, 0xbdf5d978bcb4f9a2U,
  0xbea1b3803f14a9c3U, 0x3ea6ed5bbf8d1de2U, 0xbecb4185be20bd26U, 0xbeba6a193f115a07U,
  0xbdec76f7befcd555U, 0x3f35560abe8451a3U, 0xbd3d9c483e527861U, 0xbf29d06bbed84a2aU,
  0xbefff5193d643b17U, 0x3e98bc6c3d959b5dU, 0x3ea8c7cebf61a0ddU, 0xbe56743e3e3568cbU,
  0xbd503886bf1c445cU, 0x3d922506be194d37U, 0x3e2232fdbe7cdb38U, 0x3eab46543f0d287aU,
  0xbe1429ac3ebababfU, 0x3cec35c93caefc56U, 0xb9f14bf1be207f35U, 0x3e3f4f863e6cdf8bU,
  0xbcf36cecbe6a1413U, 0xbe31c64ebf2be5c7U, 0x3f1505afbe081394U, 0xbd8201b63ec76143U,
  0x3e9104efbe97aa54U, 0xbe682102be017fe4U, 0x3e3fc8cebf3f594bU, 0x3e7f36223e6cc399U,
  0x3d685b2c3ed4f543U, 0xbdbf28d5be5b14f9U, 0x3ddc35ce3e8660a8U, 0x3e3213b33f0b4dbbU,
  0xbe83b25d3e3e2959U, 0x3f2b66683d5725afU, 0x3e55078a3e72ebd0U, 0x3ee6c8c23f163f4fU,
  0xbf43ac1c3e900557U, 0x3e46f7e33e84db15U, 0xbe40d720be79f63cU, 0xbf96f1ad3f311de3U,
  0x3e88b79dbf2c3058U, 0xbee3117ebdf763b3U, 0xbcb58ecb3e7286deU, 0x3ec846b3bedb98d3U,
  0x3ddb258cbd3a5c80U, 0xbdabe72c3ed75f96U, 0x3e8ce820be6ed357U, 0xbc5bf5063d5cb427U,
  0xbdc19c503da9ded8U, 0xbeaeb4393f0e40e6U, 0x3db72f25be8d2fa2U, 0xbe95bd773dcedfb4U,
  0xbe70a8603eca895aU, 0x3eda1d4bbddc8506U, 0x3d28a273bd060805U, 0xbea629263e0301c4U,
  0xbeaee444be9da015U, 0xbe5eacc3be8f8109U, 0xbef303e4beb1f007U, 0xbf1d404f3ead627fU,
  0xbd1715cbbdb617c7U, 0xbe79ecdb3e29250fU, 0x3ef3b7f0bdca70ebU, 0x3d0512103da28b80U,
  0x3cd8ef9dbeb1866fU, 0x3ec7eb61be01c8ecU, 0xbe4952033e2a34d7U, 0x3e0aebd13d9b3a87U,
  0xbe9e5fb23f3c07c4U, 0x3d5b3b33bdc9b735U, 0xbe944b37bd8e458cU, 0x3d3cb2aabefdd4e4U,
  0xbe1dc0923e9baaf5U, 0x3e7515113e12d2d2U, 0xbe553deb3eb71ab4U, 0xbe5b0b76be292ff7U,
  0x3dd421ed3eb44145U, 0xbd83f806be465cdaU, 0x3e2f5c293dcb4983U, 0x3e7f0d833dead308U,
  0x3defed7ebcac8c17U, 0x3e487e13bed86a2aU, 0xbf1d303d3e6c9b50U, 0x3e3aa52d3dfd4608U,
  0x3e8e8fc13e96e10eU, 0xbc137669be585952U, 0x3eb70e14be4c5e6cU, 0x3d8cd2dcbdd91472U,
  0xbe34cab7bb69de1eU, 0x3db83ca43ee8838fU, 0xbdad94afbee962deU, 0x3e8aac2a3e9cdba7U,
  0xbca1bdea3ec88361U, 0x3f334320be7146f5U, 0x3e91159c3f2454fbU, 0x3e109f00be1644e7U,
  0x3d98a2313e6dee36U, 0xbd947e57be367629U, 0xbeee682ebe551923U, 0xbd4fbd693ed4eafdU,
  0x3e090155bd4a2e08U, 0xbf0118d3bc8506edU, 0x3e01a325be595825U, 0xbd9482303d6b9a33U,
  0x3dc1db133e0f0c67U, 0x3e74c0633de756b2U, 0x3db96942bd899b5dU, 0xbdf0e8023d2385b1U,
  0x3ea6274b3e1243b3U, 0x3dde83babd7289beU, 0x3da2afff3e8409fbU, 0xbe1f855fbdd889aaU,
  0x3d5583c03e24f246U, 0x3da45ed0bd732861U, 0x3edf1e69bec277abU, 0xbceee062bcdb4177U,
  0x3d7950503d6069fcU, 0xbc59958b3e7259d7U, 0x3e8a53d5be43b04eU, 0x3d4f4f963df30037U,
  0xbd8efea63e4cd15eU, 0xbdffd15a3e60dd2eU, 0xbd680fe03dc05c50U, 0xbe766e03bc6c1a25U,
  0xbe0762b93d275bc5U, 0x3e12ef14bec8466bU, 0x3d00ab73be3c6bc3U, 0x3ce18151bda2ea65U,
  0x3ee57129bd27ba5aU, 0x3e3af76dbde172e4U, 0xbe1a2d3ebf108417U, 0xbe984b083c78f977U,
  0x3ed91cbbbd342dd0U, 0x3ede86ebbe7fa68cU, 0xbd5307353f12904cU, 0x3dcd33e7bbd9f37fU,
  0x3e218e8dbdbf30a7U, 0x3e77ede1be8bb770U, 0xbf0ac5ecbd4f7cfbU, 0xbe85b38e3ecbf604U,
  0x3dacfd46bd2cc723U, 0xbdba44463e8c6859U, 0xbef218503ecd07e4U, 0x3ec188e7be07f6d9U,
  0xbe4b1db33e9b526eU, 0x3e3d9e96be371f2bU, 0xbe406af83c0f7d82U, 0xbc388b1cbecac7b6U,
  0x3cf15f7dbe58cd3dU, 0x3e80bb9b3e8c528fU, 0xbe13b46fbe911314U, 0x3d4d821ebe021e57U,
  0x3cf0a2a13d654c7bU, 0x3efaabe4bc824182U, 0x3d9ad7043eee05f4U, 0x3ed6880b3e460096U,
  0xbecc45dcbcdcc456U, 0xbd8a0d7b3e9b5c95U, 0xbe097bba3ddd1f2cU, 0x3c8d8c953d900ce6U,
  0xbe9296583e06daabU, 0xbe4ae2edbb7ddac7U, 0x3e1685893e283417U, 0xbe245480be1a43e4U,
  0xbe22bce23eed84f2U, 0x3cf1b909bd1fa88bU, 0xbf1b7936be8685f0U, 0xbde0d6d2bedd5996U,
  0x3dab459abe617d41U, 0x3ed7aae1bf0540dfU, 0x3da2ef243e0c6030U, 0xbf2675353eeb6a24U,
  0x3e892db03eafa738U, 0x3e22ce6cbe6118c2U, 0x3d3ebe54bdc2e911U, 0xbf2401c43da12dd1U,
  0xbe7af47fbe80770eU, 0xbe453a3dbe515366U, 0x3ecf3af7bf030cffU, 0xbdb07db7beb1a480U,
  0x3cc760e0be89d83dU, 0xbd0e30e5be3f1e57U, 0x3e2c093e3db40bf8U, 0x3e58f40fbe00a22fU,
  0xbcf0e69e3e4dc37cU, 0xbd62d441be6e261dU, 0x3c759696be618b89U, 0xbe87efb03d9e4166U,
  0x3da942703de3cfefU, 0xbe2c5dc1bdcff691U, 0xbd571bf33d9cf314U, 0xbd966ff7be101ca9U,
  0xbe3e500e3f04aab9U, 0x3e10f5383e53f7baU, 0x3e4481863e1bbebdU, 0x3ebd94023cbd49fcU,
  0xbf00e3e43e657160U, 0x3e0871273c96eeedU, 0xbe2663733dcb84b4U, 0xbd00695abd449218U,
  0x3d51a7b03e723518U, 0xbccbea01bcadcb8aU, 0xbe70f6ce3e280548U, 0x3e90df953c1d6576U,
  0xbf1086b73de3d8abU, 0xbeea42a43e1e997cU, 0xbf082ea33bf62360U, 0x3e3c16ba3ee54421U,
  0x3ee1ab2cbdb99b2fU, 0xbf0e56dabeabdfc6U, 0xbdbabaf1bcd7e8a0U, 0xbf1e108a3e40aae7U,
  0x3d8308ffbe3d5b5aU, 0x3de96d20be3a60bbU, 0xbefc87c63d6063c1U, 0x3d969703beb30577U,
  0x3e4eb842beacf63bU, 0xbc7b1af33ea08402U, 0x3d9a0f8d3d81fc15U, 0x3e2cf8c5befd7944U,
  0x3e381416bed50173U, 0x3e24c29fbe19d16dU, 0x3e301065bd4e7126U, 0x3c372d853e5649ddU,
  0xbdf583bc3f28a417U, 0x3e58bcf2be765a5fU, 0x3e93b56c3c06fb02U, 0x3d3ef5fcbd6e4208U,
  0xbec769dabd7f68f8U, 0xbe043edabe8307ccU, 0xbeccdd9bbe0ad888U, 0xbc9ea2d8beac8b48U,
  0xbeaae587be64afc8U, 0x3f1f459a3ece62bcU, 0x3e83d72f3e8c2086U, 0x3e198ad2be83323aU,
  0xbe0deb00bd69bae3U, 0x3ddd02dabe0999bcU, 0xbe9b959fbccbf9ebU, 0xbe2f14a93e87de91U,
  0x3e63b700bcd9bd35U, 0xbe85f69f3e32fdacU, 0xbec049dc3ea561c4U, 0xbd4f8df33e6fad42U,
  0x3d071d613eabd489U, 0xbd1315de3e1d891eU, 0x3eb2398a3d8da579U, 0x3edca4e53da39e12U,
  0xbb3a2742bce34382U, 0xbe023aab3e8c996cU, 0xbd10118bbea9bc03U, 0x3efcaabfbea42668U,
  0x3cc9606ebca86309U, 0x3dac936b3bd759a1U, 0x3e8ea902beac3e10U, 0x3cf31885bd066daeU,
  0x3e099824be9218e0U, 0xbc4b7b2b3cca6a7fU, 0xbe2d0a38bd5285feU, 0xbd76da453c2ca5faU,
  0x3e8d3ed63dbe489bU, 0x3de81e2f3e888650U, 0xbe9dcd2abe3f88b1U, 0xbe7fe0393c535654U,
  0x3e2b16a23e1fe65dU, 0xbec1659d3d92353cU, 0xbcc368493e1f2715U, 0x3df0c1c93db078ebU,
  0x3f20c5f7be9e0358U, 0xbdf1b4d4beb391b3U, 0xba934880bc788cc2U, 0x3da0b7b53defe95fU,
  0x3dfb5f113e69674fU, 0x3e71efa1be8a29eaU, 0x3cce98cd3f0b8b02U, 0xbe0733c73ddfb4b0U,
  0x3ebed863bea8183eU, 0x3f0d2c773e931f02U, 0xbb39cdc4bd8d86d7U, 0xbcb3bc163d64aac0U,
  0x3ea9a5b9bebbec0aU, 0xbe3b2f23be8ebdfdU, 0x3ce5eefabc074d28U, 0x3e817de4bd8bc2e6U,
  0x3e66065abec196acU, 0x3db2fa423dadab17U, 0xbe1401d6bdeec20cU, 0x3d388ca2bf1c1c21U,
  0xbe242ef33d0dbaacU, 0xbe0b4eac3e890435U, 0xbec15cfc3eb3038eU, 0x3d9962433e918d58U,
  0x3e9458103db5d24eU, 0x3defce8f3dd770e9U, 0xbe87e5303da953b9U, 0x3d6313f5bec3eb7aU,
  0xbc8b65073c822967U, 0xbeaa49f43de57089U, 0xbe7454113ed30e8aU, 0x3e7fb89dbeae7581U,
  0xbe3b9882bf18f6feU, 0x3dd8d2a0bdfc8250U, 0x3d875b543d99ec8eU, 0x3d2bd2ba3e71a3a7U,
  0xbdf5f6503e5ce586U, 0x3ea354e33a6b0b87U, 0x3e73c030be0d2ec5U, 0xbde04d703ea83685U,
  0xbdfa14763e9339e6U, 0xbd270e1bbe0cab9aU, 0xbd184957bed83c16U, 0xbe96bb153eb2df44U,
  0x3e6de2223db40bc5U, 0x3d4a9d64be92364dU, 0x3d8f26b03cc7a9f8U, 0xbdc59a453da1ba06U,
  0xbe15fc7ebe026a59U, 0x3d8d18c0be67d53aU, 0xbe8b137fbe1636deU, 0xbdf43052bcffdd87U,
  0x3e7829243c2c7d80U, 0xbec297aebd5640e7U, 0x3d85433a3ecb14a4U, 0x3ce4939ebed10707U,
  0xbddc17253e15e2fbU, 0xbf0f8a463e8982d7U, 0x3da1c6b0be763e76U, 0x3e2717e3bd97f30aU,
  0x3ec81e7cbe7f20baU, 0xbe5bf519be95d48eU, 0xbdcb3dcbbea8f9e8U, 0xbd513b77be2e33c1U,
  0x3e878b073d80ccb0U, 0x3ea0c11fbdb3ae43U, 0x3daafd1abab80c7fU, 0x3da4a68cbce26aedU,
  0x3ed64e8bbe200d9fU, 0xbe2f6bafbdb65a82U, 0xbe7ccbd53e9f1428U, 0x3dcad47a3e96a9bfU,
  0x3dbfb6913d8c836bU, 0x3e89f9383dbfcb6bU, 0x3ea197efbedd3389U, 0xbddba086be1435e2U,
  0x3d7080be3de92850U, 0xbe93f4ea3e23f76bU, 0x3dd0e03dbce63501U, 0x3e87a6da3e198674U,
  0xbbb79d9b3e8a4a03U, 0xbe23c74bbe8dbe88U, 0x3e95b5133ddc1b48U, 0x3d8d1b073ecc3ac6U,
  0x3e65ef0ebe48c3ddU, 0xbe18677ebd73ded4U, 0xbc5e1f9abc70ce20U, 0xbd8402383d051310U,
  0xbe003bf13e649c6dU, 0x3d5bcd423e785e76U, 0x3cea1b65be02e699U, 0x3cc6e77f3e7423f4U,
  0x3e0122183e0ace14U, 0x3d78eec23ba0414bU, 0xbe0246863e168c83U, 0xbe727841bea93320U,
  0xbdaf4f3cbd79da58U, 0x3d3afada3e1125ebU, 0xbe8dabc73e5b90caU, 0xbdd7325bbd6ad671U,
  0xbe86c789be798596U, 0xbd2d4b29be05c703U, 0xbd498a1a3d69554fU, 0x3dc0403abe9f40edU,
  0xb91905ac3e6cc981U, 0xbe5b1cf9be54752dU, 0xbeab81bcbeaa0728U, 0xbe62771ebe0a252cU,
  0x3e2827a43e1d3f1cU, 0xbd0e9113bd6cd6f6U, 0x3e85a5de3e31dcedU, 0x3e2891c13d98e023U,
  0x3d179f69bdcc430fU, 0x3c36b7d33d8400b2U, 0x3ee6027b3e80c2c9U, 0xba544ce8be010af9U,
  0x3c8349ad3da4ce4dU, 0x3e88255bbce0b98aU, 0x3e46c7713e0eed71U, 0x3d63066f3e220849U,
  0x3e161e0bbe248b0eU, 0xbdcd8508be39a461U, 0x3e393207be5ff1a3U, 0xbed016333dad672fU,
  0x3e4597f9be39e3dfU, 0x3d92e5e6be26dd6aU, 0xbe8a41cb3e831297U, 0xbe106f4b3d8cbdd1U,
  0x3eb36c96be90cc5cU, 0x3e8667393e116782U, 0x3e43662c3dfb13b0U, 0xbd40b371bed33094U,
  0xbc8c0e9e3e0a1841U, 0xbe0ca7ca3ea02396U, 0x3d6f549e3b8e6af0U, 0x3e7e356abe2acb2cU,
  0xbee2f25a3eb41c00U, 0x3b732c703df44fa2U, 0xbceb7e743e181d62U, 0xbde0aeda3eb45c16U,
  0x3d23e5b93d6f7106U, 0x3cf236b93e241c3dU, 0x3e0d720fbdf8ea2dU, 0x3da3c8c6bce2fa4fU,
  0x3dcb4bf23e6492cbU, 0x3e940e503de77df2U, 0x3ea51c9bbec831fcU, 0x3e9f3a043ea3528bU,
  0xbebd8b533d39a4a5U, 0x3d808966bea99b94U, 0x3d33bb303e645aa4U, 0xbd0257a63e232d2bU,
  0x3e2cc92cbee54425U, 0xbe595e70be5035aaU, 0x3ec7ac68bd4680b8U, 0x3c4da551bbe5dc36U,
  0x3e4a5df9bd86b09aU, 0xbe8011a73d2d904dU, 0x3eb5eae6be02d832U, 0x3d3596ebbde56ab7U,
  0x3df583ba3e41ee90U, 0x3d486ae3bdd05ab2U, 0x3e3c4b92be1b21a6U, 0x3dde8bd33ef6a9a3U,
  0xbee1c54c3eab4a58U, 0x3dbdf3cdbc5e96f1U, 0xbd4c95483ee2cc77U, 0x3da9f4b03e09750aU,
  0xbe9980273da8420dU, 0xbd562b4fbed77584U, 0x3de936ffbec6a65eU, 0xbe08f53abe27fb6dU,
  0xbec42a5d3f10a017U, 0x3e5d0649bf1f4e81U, 0xbeaaf2c93e130968U, 0xbd533c9e3f5a6311U,
  0x3e9a9a8d3d4a1a63U, 0xbd654969bd125243U, 0x3eae8b76be94c9d9U, 0xbe6c8b573de77e79U,
  0xbf76d8303f5f5f59U, 0xbe007059bdabd5d4U, 0x3da507023e0581b9U, 0x3e56c153bf3e02e0U,
  0xbef090ed3f1f3c5bU, 0x3f2649dc3ec719aaU, 0x3f2524a2be0c31d9U, 0xbee86062be7fb421U,
  0xbecef753be7230c5U, 0xbf054760be926ed0U, 0xbed816dc3ce765cfU, 0xbdab25ee3f54b10fU,
  0xbea61e053dcfbf19U, 0x3f04d5eabe919bcbU, 0x3d7f8b7dbf32f1f8U, 0xbd9116633dbf808eU,
  0x3de858b93eddd8d9U, 0x3eb0230ebe5af835U, 0xbe8602d8bca3e1b9U, 0x3e88763c3e6b3c7aU,
  0xbde398e9be3b5213U, 0x3e0601fabe8417c1U, 0xbe8bd9c23d6c4f8eU, 0x3e21a778bec88761U,
  0xbe7b8fffbde8ad8bU, 0x3dadadbd3f0b265bU, 0x3eef09523dacb311U, 0x3f0f13debf0928e8U,
  0xbe30bff2bf158111U, 0xbf37437bbeda25e3U, 0xbdcd923a3e9c783dU, 0x3e22dde53e5193a1U,
  0xbe80e237bc8a916aU, 0x3f42f2843e2dd101U, 0x3f1c3110bf213613U, 0xbef38fe73e973f1cU,
  0x3e988f713e0db930U, 0x3d32e8143d22985bU, 0x3ce802f4bea4174fU, 0x3e905b8b3e337035U,
  0xbf85bdddbe86775eU, 0x3e7a3150be654c27U, 0xbdf8ea073e8d0f63U, 0x3ef813d7be657eadU,
  0x3da0f90bbe76b663U, 0xbdb794d63e4b7054U, 0x3ee1cb57be8a85e8U, 0x3f6075f23df61bb2U,
  0x3d38ae6abe55073dU, 0xbb80e229be91eb45U, 0xbe62e6af3d14685bU, 0xbd2ad0303f5c38a4U,
  0xbe11e0ad3f756cc3U, 0x3e4e5be43ce91aa0U, 0xbea032b53dfe738cU, 0xbe57e7cebe661700U,
  0xbcef93dc3eace172U, 0x3f665cb8bf0422ebU, 0xbf1284433f5f423cU, 0xbf018ac3bebed50dU,
  0xbbccb967bcceea39U, 0x3f80ba2e3e06283bU, 0xbe102cef3e62b90fU, 0xbd8cdc16be0c11eeU,
  0x3e822442bdc2cecdU, 0xbe33d85f3e20a473U, 0x3e29e667bedbf990U, 0x3f080a76be228da9U,
  0xbee7ab703ed475a1U, 0xbf165f6ebf1261b7U, 0xbeb7bf81bebc2414U, 0x3eef6554beadae94U,
  0xbf4645c43f0d7828U, 0x3ced00de3d38f489U, 0x3e8a16dfbe9769d8U, 0xbe7fb751be894974U,
  0xbec72e063ea5dc8cU, 0x3ee3a60cbea09591U, 0xbf1650bb3f497c43U, 0xbe971d47be11eed7U,
  0xbe45262cbe136850U, 0xbce7ee64bf1fa2dcU, 0x3e4f1d7c3e2ccd8fU, 0x3f177860bc8e5db2U,
  0x3d531aa9bc60d35fU, 0xbeac8b403e2cc9deU, 0x3e311a873eabc43aU, 0x3ede3f4b3e89671aU,
  0x3e9d885cbdbf9cbeU, 0x3ddd770fbef4dcb3U, 0xbd7e7fcf3e207f67U, 0xbb9dbc9ebe5a5592U,
  0xbe9ef5863eeeeab6U, 0x3ebe42e9becdc1f8U, 0x3e45f38c3dbef874U, 0xbecbb3ad3ec1e406U,
  0x3c933176be8450b7U, 0x3dd0d1b6bf02f281U, 0xbd277ca63e3456a0U, 0xbf45cffe3cdbf93bU,
  0x3e5f49e93e83966fU, 0x3ef0bbda3d28c8e9U, 0xbeba9e753dd5201aU, 0xbe014d2b3db3f769U,
  0x3e10611d3e875650U, 0x3e8948afbd586e01U, 0xbf36319e3f4fba0fU, 0x3ea4fc0bbe873c85U,
  0xbe5b3f28bd339813U, 0xbba91b473eb2e37eU, 0xbf1535d7be869a59U, 0x3dd4f21fbecc86c2U,
  0x3e44b504be82331eU, 0x3e58ec27bd60d304U, 0x3d455f7dbf4c53c5U, 0xbf6435483f81c52fU,
  0xbed5907e3e7f6a43U, 0x3eeec1113dbd0620U, 0x3e8f9a27be713406U, 0xbdd158323eb18b94U,
  0x3d775a0dbeab48a4U, 0xbd47615bbde61232U, 0x3d5a47913b30f81aU, 0x3ebe76f2bf223c5eU,
  0x3e124a8bbe9e57dfU, 0xbf62de303f005587U, 0x3f4ad3f7bd1fad76U, 0xbe3b16e2bf573f24U,
  0xbcbe05af3da65dafU, 0xbc9b270bbe63aeddU, 0xbdf2668bbda54bf5U, 0x3e7899c33eb65a66U,
  0xbd90e592bef900ceU, 0x3f1b80b9be17e513U, 0x3ed06737be0d2d2eU, 0xbdbbb9753e4b329bU,
  0x3f0264b4be84a3c2U, 0x3e6b6c923dea6493U, 0xbe1ba6c83de963f9U, 0x3ccb1c253e2964d3U,
  0xbf3340bdbe561886U, 0x3ddfcfc43ebc3c20U, 0xbe8598af3e2173bbU, 0x3e97b042beb0456dU,
  0x3ec06a12bdef47a4U, 0xbe01b3553ec7aba4U, 0xbe8b20953dee3666U, 0x3ea72cecbe2e73d4U,
  0xbec471063ec214fbU, 0xbce953e83d7635c2U, 0xbe64a890bd404cfdU, 0xbe057fbd3d294edbU,
  0xbf6796a83f171e87U, 0x3e826721bf530841U, 0xbd95fcddbee0fa1dU, 0xbd41562c3e9f6a77U,
  0x3de83686bd8667b0U, 0x3ef779c9bf0e6580U, 0xbf212d543e354d24U, 0xbf219efdbf1855b5U,
  0xbd084ebf3f10e588U, 0x3e21c172be96fcc3U, 0x3e5c7d83be31cd4fU, 0x3d9a9a57beb64be5U,
  0xbdc7131abf1accacU, 0xbedea1473d855741U, 0xbdcf7e2abe43a792U, 0x3f1a5dd8be05f239U,
  0xbf47c3c63e8c6a63U, 0xbeb8b788bf5ea3ffU, 0x3d6e18b03e516bd1U, 0x3dd24e2e3ea0e2f8U,
  0xbf2c7a5e3eb7fa0aU, 0x3e2b9ac0be35361dU, 0x3e8aa391bed82a17U, 0xbeea9e9a3d90692fU,
  0xbeacf98dbd8d49f5U, 0x3dd9449dbe8b9d35U, 0x3ea723bd3e0403a5U, 0xbdc469053ed02dc8U,
  0xbf0cf3c03e954843U, 0xbcbe4be5beb18173U, 0xbee4c18c3e419808U, 0x3ecae3c2be797032U,
  0x39772ea8beb7f7b0U, 0x3e87385a3f36e43dU, 0x3bd1c45e3e1a6572U, 0xbda9120fbee9a71cU,
  0xbec45f43be1b0405U, 0xbf049861bf19eabbU, 0xbf3fe0903e946f9cU, 0x3e25179a3e1e4cc2U,
  0x0U, 0x0U, 0x0U, 0x0U,
  0x0U, 0x0U, 0x0U, 0x0U,
  0x0U, 0x0U, 0x0U, 0x0U,
  0x0U, 0x0U, 0x0U, 0x0U,
  0x0U, 0x0U, 0x0U, 0x0U,
  0x0U, 0x0U, 0x0U, 0x0U,
  0x0U, 0x0U, 0x0U, 0x0U,
  0x0U, 0x0U, 0xbd9fafa43e2a06a8U, 0x3b8814a43f6a2b22U,
  0xbd929b253dbaf4c3U, 0x3e90e7903cc680ebU, 0x3e999b213ee1aeb5U, 0xbe67a8553d7e6e2cU,
  0x3e80f61e3eba8369U, 0x3f4edc923eade053U, 0x3d6f7a153ea49fbfU, 0xbee3ab833eae30bbU,
  0x3f8c14b53f87335aU, 0x3f99d5e33f99b21dU, 0x3f7aab1a3f732d81U, 0x3f93354e3f8f7988U,
  0x3f83a8ce3f86ad39U, 0x3f85c7443f8a0bd2U, 0x3f927e753f9d2efaU, 0x3f9c4e093f9fe531U,
  0x3f9733673f653c31U, 0x3f9530de3f963d57U, 0x3dee4139be31f3c5U, 0xbdf336c73e04359bU,
  0x3d4559a83d59e4ceU, 0xbe012f49bd125933U, 0xbdf13b7ebe007e8bU, 0xbe15dee93d26affeU,
  0xbd39dd6a3e23b46aU, 0x3e04da1f3b98858bU, 0xbd9787a5bdb95e06U, 0xbe3e6ed6be15120aU,
  0x3edd21d33f467477U, 0x3e5b8f283f308a4aU, 0x3e9b3f4bbd3d72d6U, 0x3e4c1d1f3ea432aaU,
  0x3dfca5663f0d2209U, 0x3e7b685f3ebba1d5U, 0x3f01d2363e3df609U, 0x3f3910533e8023e6U,
  0x3edbe9533f45799dU, 0x3ea636433ec08915U, 0xbf0ffcf2bf36b229U, 0xbea4d1b6bedca3c9U,
  0xbdf839c2be613b0eU, 0x3d921547bcd73130U, 0x3e8d02353e2f2597U, 0x3efe1a1c3ec4bdcfU,
  0x3f41cbe93f1fb43aU, 0x3f89b1b73f7cde02U, 0x4547457878575884U, 0x5699995548858986U,
  0x7558547778973346U, 0x7329856836497348U, 0x72377446a2154878U, 0x6747864488976436U,
  0x9654777855577244U, 0x6879654774645545U, 0x7536655756579546U, 0x5658575767556979U,
  0x4755586369867555U, 0x6864679797668676U, 0x6996885896923568U, 0x8987868326976977U,
  0x88a42777675a8798U, 0x488a5558667a8876U, 0x747854897678a887U, 0x446974699778787aU,
  0x75677879986c7465U, 0x7568995c65955669U, 0xbb6a76b5576a6688U, 0x77a7596a76968569U,
  0x5a5a68b77455ab77U, 0x88c564688a787678U, 0x4347684686887838U, 0x66248586773878b6U,
  0x9585663657a53447U, 0x6643798625275724U, 0x68b5564678568675U, 0x5544777478467733U,
  0x66858829a6367683U, 0x9524a52974635365U, 0xa42b643242555585U, 0x6432214554788423U,
  0x433643788534b529U, 0x9884766375878337U, 0x7763556795483446U, 0x8ba0468645449983U,
  0x6358786445949ab5U, 0x467a6867765667a7U, 0x5766689676b45592U, 0x65a9758567945888U,
  0x557767a4778a6786U, 0x5794778b88757687U, 0x878b596677865685U, 0x5a35679557755795U,
  0x588858934894957aU, 0x398146a597776a43U, 0x5796977549334897U, 0x9785464367743a92U,
  0x45446755298564a9U, 0x766449b354a9b977U, 0x4ab164a998b74444U, 0x65a978c936658565U,
  0x67a8668486853ab3U, 0x6564766649a364b8U, 0x7765299477b83888U, 0x3984779858797735U,
  0x777a755786467755U, 0xa566656788754982U, 0x756689954781a879U, 0x7a865591a898b686U,
  0x65627887b7986675U, 0x7986978886866a66U, 0x8789788859656463U, 0x7769596554737979U,
  0x6a47639488794687U, 0x6393879936787789U, 0x97774589877a7a55U, 0x4488898a89465383U,
  0x6874866454757457U, 0x8764467484573465U, 0x5487945765557775U, 0x96572556a9765454U,
  0x353377a486435776U, 0x6785677278479657U, 0x4763756686666543U, 0x7585675556646876U,
  0xa678765346665632U, 0x8663579766365758U, 0x678875256956a488U, 0x8633595795678456U,
  0x4949855784667879U, 0x8458969668598657U, 0x9497886a75564848U, 0x786b744556478548U,
  0x6258556764177487U, 0x545473075587575aU, 0x7537666725395488U, 0x8765242856974773U,
  0x2457578868746956U, 0x578866666a976977U, 0x56685aa759762545U, 0x6997494634445577U,
  0x4756845245655789U, 0x93735484759a6a76U, 0x6673766959688758U, 0x835a696777389286U,
  0x4778675795755575U, 0x687794966565545bU, 0x96a8795582795756U, 0x7b47a45717268966U,
  0xa28717178a739688U, 0x2719aa73859a6937U, 0xbb32948d7838d196U, 0xb667577765675676U,
  0x6657744858768587U, 0x443c776783767668U, 0x59855266a6595327U, 0x9774856478878a64U,
  0x9666665666586865U, 0x8656644867476675U, 0x8558784685648677U, 0x5835656376776757U,
  0x9673559577678948U, 0x4496456788567856U, 0x4477773887458875U, 0x7949755587866587U,
  0x7645788654685557U, 0x7788473654486a77U, 0x392464467a966756U, 0x826798b767676988U,
  0x87c4667789686643U, 0x777a876956528468U, 0x784a538395569593U, 0x5587845574736589U,
  0x6344724663496a3bU, 0x826662377a5b6689U, 0x8217787b777b7445U, 0x8677487a43568386U,
  0x577a454896767227U, 0x5638777775378886U, 0x779955367b73587aU, 0x6526896548597959U,
  0x88653747796978a8U, 0x2843759897b88734U, 0x63b988c776649746U, 0x78a8768488273641U,
  0x86646926464152b8U, 0x5a35647242b77999U, 0x6677586666738656U, 0x7636656674487655U,
  0x4479b21966686867U, 0xb00a762b77779605U, 0x853a7869a5253486U, 0x587a95585297922dU,
  0x4788525735799749U, 0x3348259a68797778U, 0x269a486c976964aaU, 0x677a864994bb2335U,
  0xa62994b924444889U, 0x85b9577537888799U, 0x6887369685a88717U, 0x579473c787259398U,
  0x61b8772473855984U, 0x753464a479645792U, 0x57a4794577a34297U, 0x984776a422a85524U,
  0x58941396664667a5U, 0x159457645996a939U, 0x55737ba7b9494654U, 0x7c97aa4957274583U,
  0x9948682766865573U, 0x6827a66656715ba6U, 0x876666837b978a45U, 0x5683786699345728U,
  0x66457947463a7546U, 0x6546563a75676686U, 0x765b636857a87355U, 0x8349577982975635U,
  0x496886a72752767bU, 0x79a73685767a847aU, 0x3595878a76485a58U, 0x9799672759786896U,
  0x6848798678952584U, 0x7777865556788458U, 0x7666587874585466U, 0x8687833763677876U,
  0x6684756779576765U, 0x8896575679967674U, 0x6476a65859956799U, 0x86577695569887b4U,
  0x7777769856867676U, 0x9786387863756696U, 0x4757547438976654U, 0x7681598764438666U,
  0x6774513256564646U, 0x82414647281687a2U, 0x6417190786b56984U, 0x191486a76983a240U,
  0x75a4794481317528U, 0x4943722394273714U, 0x4425765768236493U, 0x8547383485744733U,
  0x2635867757434346U, 0x9788684243579317U, 0x5753629574286545U, 0x52b685277653978bU,
  0x8546656288aa6665U, 0x65627a8b657762a8U, 0x898a877654788646U, 0x5897769887657555U,
  0x68aa595486767868U, 0x7845877767576678U, 0x6867464546786abaU, 0x473466787bb88954U,
  0x43878a988a554946U, 0x8a776a5579484555U, 0x77466a4856744285U, 0x7b58555563657869U,
  0x3558378889574774U, 0x4588883958a48988U, 0x8b532cd288885448U, 0x3df28ba4525329c9U,
  0x6b87426318aa5827U, 0x8645269a542848c2U, 0x39aa473468a3285aU, 0x485368a788687748U,
  0x77aa9869764757abU, 0x8559664675694783U, 0x77559468499586aaU, 0xa57447a795aa5349U,
  0x47a79479441a8945U, 0xa77a550aa8568582U, 0x5518b775a79255b5U, 0xb7a399a263b59879U,
  0x998263958a785508U, 0x745899887628c6b4U, 0xa7975737b5b58964U, 0x576696a68a568349U,
  0x94977955923778a7U, 0x7853855789a65476U, 0xa555889746879677U, 0x7ab5479696887754U,
  0x5794888557349646U, 0x76755625974767b7U, 0x8726762655b54793U, 0x6346539456745676U,
  0x546344666385a655U, 0x6355537596475455U, 0x3456855667557453U, 0x6555763663447365U,
  0x7839534253854375U, 0x5342536433575356U, 0x6274434773558749U, 0x9794786445767347U,
  0x8765567574585345U, 0x4575935744468984U, 0x9239544588867763U, 0x53468998a7544376U,
  0x9978b30532aa900dU, 0xb4142897b51a4338U, 0x657794573334b796U, 0x8635476786779767U,
  0x3777879777668268U, 0x8779466a85599524U, 0x497c985a85443663U, 0x9859653666635886U,
  0x563487643673598bU, 0x596426445789a859U, 0x3635577979384545U, 0x5548893644362a55U,
  0x774547381a345837U, 0x4a574a5548595459U, 0x7b78685844778664U, 0x7a474477a7934b96U,
  0x458698944ba79c78U, 0x99935b878d889665U, 0x4896ab7597466877U, 0xac57673378567893U,
  0x7744685659a36897U, 0x7673679277989a37U, 0x6672789877477754U, 0x78ba557677767773U,
  0x6588768676534772U, 0x98667654283466abU, 0x5975273586aa6588U, 0x383496ca55988865U,
  0xa7e944c988857b96U, 0x54da78737b763634U, 0x4558457867684984U, 0x4688676758649886U,
  0x666b766688873648U, 0x86376778664b5357U, 0x6459683b42767369U, 0x5666456577574628U,
  0x7576686746466767U, 0x5767464575774576U, 0x3776766965547555U, 0x6688754665636596U,
  0x6475777662895767U, 0x7659617946452688U, 0x5269576726677566U, 0x5555557775677468U,
  0x63658597647a5279U, 0x7686657934564576U, 0x6688575633857464U, 0x5868538384666786U,
  0x4573a64546656669U, 0xa54566638559476aU, 0x4453845956776552U, 0x8349437465648444U,
  0x5364538443453472U, 0x4264155845837457U, 0x287855a762775466U, 0x7889647556785276U,
  0x6586565773871868U, 0x684783a65775a778U, 0x65854874b8355785U, 0x7784953647748638U,
  0x9614656477194583U, 0x7735862943656685U, 0x682b427574646514U, 0x3254837354147736U,
  0x636544137546795aU, 0x5557767987465786U, 0x5687765868767777U, 0x5549676669685547U,
  0x6448667966577678U, 0x6459775a6357635dU, 0x5557b76677969645U, 0xa7447876c6356768U,
  0x9877a72548485456U, 0x6834766466675752U, 0x9652465647328776U, 0x4479653288763764U,
  0x6423857549666874U, 0x7555587558556389U, 0x6777385884787632U, 0x6757955a67357448U,
  0x955a775784486877U, 0x688786688a65a764U, 0x76488874c3859777U, 0x5665b27496675768U,
  0x8286865676575587U, 0x6658745648687445U, 0x73664b6784466085U, 0x4a67743490566646U,
  0x6525806666477567U, 0x7166553597783a48U, 0x4447765837676536U, 0x767a587866266186U,
  0x4a75762674884566U, 0x752784784545756bU, 0x7657588664896985U, 0x68a7637648849638U,
  0x52a8566398585749U, 0x47639b89698979a9U, 0x8cb87a9a7b8775b8U, 0x6a998a8888a75854U,
  0x3e29a301be0c830fU, 0xbd8d59cc3e089cc4U, 0x3dd345a03d0d4451U, 0x3e12861bbe1ce4a7U,
  0xbdbad407be008210U, 0x3de6fe03bca2b9ddU, 0xbf60a805be32fc06U, 0xbf338e16bf8484dfU,
  0xbf8f8106bf831801U, 0xbf433077bf1e7e30U, 0xbf278349bf12486eU, 0xbf0998b9bf362367U,
  0x3d06897abe470da2U, 0x3e4e6b353e127f7aU, 0xbe142e0d3d6f9c72U, 0x3e98d2c53da615a8U,
  0x3dfe3cde3e097327U, 0x3ef024f8bd0fe562U, 0x3da2a92cbe73bd96U, 0x3d011c69be92285bU,
  0xbde59bc4be3a79e6U, 0xbef423e3bf095e42U, 0x3d305eeebea875b9U, 0x3f28861f3d31f971U,
  0x3ea1ff913eb5b953U, 0x3e87f4553daae4e4U, 0x3f51512c3f26957bU, 0x3f2624073ebb73b2U,
  0x3efe12163f358609U, 0x3ee4d29e3e87aacaU, 0x3f35588c3ee5881aU, 0x3e2851633ef67ceaU,
  0x3ed41ae63f0f1047U, 0xbdd704e8bdb611bdU, 0x3eb01c923eabddafU, 0x3dfe541b3e201c8cU,
  0x3eef311c3f498a57U, 0x3e934fc3bd288051U, 0xbe2a2fe03d342173U, 0xbcd80a91be7ae9e6U,
  0xbd0b305d3dd728cfU, 0x3ecf012d3e797a63U, 0x3eabac61bdab833fU, 0xbe24d34c3e298b80U,
  0x3ecbef023df5b17dU, 0x3f7fd8093f307308U, 0x3da4c8f53f0ba38dU, 0xbe8dfa9cbe4e01edU,
  0x3e47b4e53e1432ecU, 0xbe3bb9103de1552bU, 0xbe87c8e0bdb8d615U, 0xbb43beb23d549486U,
  0xbee600e6be487161U, 0x3ca9ce98be184dd1U, 0x3d51e8383e1d2706U, 0x3ea3ec743ed1af55U,
  0x3f033bd03f201d93U, 0x3e08acf43e284ec1U, 0x3ed3d16c3f35b8c5U, 0x3cfe5b393f1bac66U,
  0x3e967ece3f0a892bU, 0xbe3d3633bd0d0c66U, 0xbf4e76e9bc4ffef3U, 0x3d80c49ebe1d4ebeU,
  0x3e5d31753ed9ba8dU, 0xbed09ddbbe49636dU, 0x3e5e82f33d96ddbbU, 0xbe7107143f2e091fU,
  0xbe66c41fbed66196U, 0x3eaebaf73db8c8b1U, 0xbe35d67ebddd60feU, 0xbc8f4057be71fe77U,
  0x3eaf2dda3ee8e30bU, 0x3e107d22be5685b1U, 0xbcecfa6a3bf35246U, 0x3e0e0796bd4d92cbU,
  0x3f48d3283ecd9a3fU, 0x3de4f5023f440e0aU, 0xbd20c2fa3e573732U, 0xbd716cccbe387d4bU,
  0xbea31355be79f00dU, 0x3ef2c99c3da1ec10U, 0x3eba94af3f0ce7e4U, 0x3f4ec3ae3f34e921U,
  0x3ee363813f326256U, 0x3ecc50d73f275155U, 0x3f3d30d83ea5f26cU, 0x3d3cd13e3f3e71fcU,
  0x3dccc7a33e3c1b31U, 0x3e4e03d73d4809c7U, 0x3ec5e53e3ebfb9e6U, 0xbd55a47ebddddfe8U,
  0x3e2ea1223e2a4080U, 0x3ea60b22bc55d844U, 0xbc1a6c4bbd8b993cU, 0xbe7aa66ebe526972U,
  0x3e8228493ebb21baU, 0xbd0f5777be2cbef2U, 0x3f2578d23eb2838dU, 0x3f0eb1b03f107849U,
  0x3f1166483f1372ffU, 0x3f0c363b3f54f734U, 0x3e8168dc3e84f1f4U, 0xbe413a46be461f7dU,
  0x3ee3c16abebf3bfeU, 0x3bc2532d3e488a1aU, 0x3ee7d03a3eaee10aU, 0xbde2a1023c0c085fU,
  0xbe555942bd7254cdU, 0xbeb37252bdff2ec8U, 0xbdde66b9be93fab8U, 0x3d170bc8be75f12aU,
  0x3f183b493da26235U, 0x3f5001293f35337cU, 0x3f1ef6e13f399912U, 0xbe0ab7d03dbb09caU,
  0xbde9c3e1be8c1774U, 0xbd76fc12be3f4af2U, 0x3f9215b53f44031bU, 0x3f1d68173edfef4eU,
  0x3ee249da3dfc6b69U, 0xbe9c9d593ebf7c13U, 0xbea179ebbe80478eU, 0xbdf84cfdbdb81f11U,
  0xbe810ecfbe0079a0U, 0x3d280c74be453239U, 0x3f736e8e3efb0678U, 0x3f7f5f973f525966U,
  0x3ee3ca243f1715e0U, 0xbe2fe04b3ee1ed05U, 0x3e937cf93f2d0379U, 0xbe83f6c03c1e9981U,
  0x3f370a773f3b0930U, 0x3f2a59903f31303bU, 0x3e1d623b3f16c866U, 0xbe6dc40d3dcdca08U,
  0xbd8aeb3abe699d82U, 0x3d8d2decbdf3b01aU, 0x3cebcc6c3ec45371U, 0x3d28d988be7e61d5U,
  0xbe0488623d48d581U, 0xbe3c7f95be8ad1faU, 0x3e144c5a3e415d6eU, 0xbe1dc58a3e828036U,
  0x3f281ec73efa08f8U, 0x3e9d7606be68de41U, 0x3d88dd03be0068f0U, 0xbd37c8f6bccecfafU,
  0x3efc645c3e074d17U, 0x3f0525263f371ad4U, 0xbd9e09693f4634efU, 0x3daf50c7be5d9c70U,
  0x3ebd2b7c3d0b2106U, 0xbd661e8f3e3b5ed3U, 0x3d73e65bbe44242fU, 0x3e45dd913e65c6caU,
  0xbc68bba93e325db1U, 0x3d9a06e03db15a7fU, 0x3dbdd09e3da6ea62U, 0x3e753c103e3844c4U,
  0x3eea903c3f14497eU, 0x3ef42de13e86c39fU, 0x3e6a74633eb39630U, 0x3e5e489b3e281fbeU,
  0x3f18e0433eede3f9U, 0xbca7a7873e497582U, 0x3ea189acbe36c126U, 0x3f14bed33f17faa0U,
  0xbc984aac3e0f22a3U, 0x3e3600ab3e6ec3caU, 0x3f5132793f315246U, 0xbf0f94bdbd86c330U,
  0xbe27569fbe6fdea9U, 0x3d4fa005bd4d3dd3U, 0x3e8a95e6bccc0dc8U, 0xbe91918a3db0f224U,
  0xbea7dfb03b0db01aU, 0xbe81991e3e4e9999U, 0x3e4cb889be9e97d7U, 0x3f21b8383ed9d830U,
  0xbe3ccdb93e2f2da6U, 0x3e2466bfbe801d66U, 0xbd136ede3e704b9cU, 0xbe5f131dbecf417eU,
  0x3ebc31b93e4954f1U, 0x3d2875903f2596b5U, 0xbf071afebda4756bU, 0x3e3aaf5fbe14c521U,
  0xbe18d38fbdbd51ccU, 0xbdba0e80bedd7e68U, 0x3db04e823ecbad5eU, 0xbda6bcc7be8108eaU,
  0x3e2cba813e6e5d72U, 0x3ef5d3b13ecd43d1U, 0xbdd5a5023e2e07b2U, 0xbe84cc3abf0251c0U,
  0xbeeeae17be603d37U, 0xbeeeba28bf3dc38cU, 0x3d98435bba61141dU, 0xbf14bf5bbeea8349U,
  0x3e5ddf33be789328U, 0x3d8e3d153e809ac9U, 0x3b1d57b13c420c38U, 0xbeb3e1bbbeffeccaU,
  0xbf05a063bf4ee20dU, 0xbf27e2c8bf46e7bcU, 0xbf31c015bf711a36U, 0xbb9c5c99be5bfa99U,
  0x3e1068353e8c0bbfU, 0x3e4b8ea33b80e6a8U, 0x3b6a56d2be0a7c76U, 0x3e884d1abcf42895U,
  0xbe3a77bb3cd1a7e5U, 0xbe892e36bca33b15U, 0x3e9853c0be9f9b7aU, 0x3ee16c863d337597U,
  0x3f305c783f0002e7U, 0x3f677a303f089657U, 0x3f577e063f7a9a92U, 0x3e38ee193d6d3c6eU,
  0x3f18c5a53f1c593cU, 0x3f8280323f0b888aU, 0x3e8394583ec32ba3U, 0x3f138d0b3d94694bU,
  0x3f3ccbd23f3f0e3fU, 0x3e72c8d93ee58cfeU, 0x3c5359273d0d25f8U, 0xbe37bbbfbca69f76U,
  0xbd96f0b53e1cee10U, 0xbc8f67f63d522c1fU, 0x3e97c1a0be25a617U, 0x3e4d13f1bdaa958bU,
  0x3da659b4bd1d2212U, 0x3df9dc75be3900b2U, 0x3e8ce34a3e72b3eaU, 0x3e3d60973e120bc3U,
  0xbe93cd453e5693dcU, 0xbee34d13be41298bU, 0xbc3fcba0bed2b5e0U, 0xbeac227abea98cfbU,
  0xbf3db172bf138165U, 0xbb9bc759bf5002c2U, 0x3ebbbacebe5b607eU, 0x3f17c495be188d2eU,
  0xbeb7fbae3d78d39fU, 0xbe96e599bdea5fbdU, 0x3d664890bdc19cf3U, 0xbe5cbb9abe8f24ceU,
  0xbeeb3742bf1652faU, 0x3f771b203ee539d3U, 0x3f1350573f34e2cfU, 0x3eaba9273ecda312U,
  0xbe34f9ea3e7484d4U, 0xbd9d7f36be3c5249U, 0xbe553f863ae8d8ddU, 0xbd45968fbf014765U,
  0x3f57ad0e3ed3687cU, 0x3f2e01e83e70a5e9U, 0xbec4a161bd9c4663U, 0xbe84c1d7be7b9876U,
  0xbf19551ebef1810cU, 0xbdf094f7bea8e12cU, 0xbef29395bee3a619U, 0xbf13bd6abf0be25eU,
  0x3e9faf013e48cea5U, 0x3e6777033eea1cf2U, 0xbeaeefd8bc901603U, 0xbe91934d3b8261d2U,
  0xbd210fb6bc982567U, 0xbd6f636fbef11c48U, 0x3e4465c83f247050U, 0xbe959c7dbd620addU,
  0x3b6785aa3c39db18U, 0x3d1b40423f2fbd4aU, 0xbebc15fdbeb92ec8U, 0xbe4bc4f3be02bffdU,
  0x3ea892093de554efU, 0x3f44401f3f6031f6U, 0x3eaef2de3f11e360U, 0x3e5106f23dd5f4c7U,
  0x3e8cd63cbe18ac73U, 0x3e8624403d78ec69U, 0x3e299af53dd986d0U, 0x3ea67aad3cf5e7d9U,
  0x3cede9fa3e7d5c55U, 0x3e978a6fbe2cea29U, 0xbf408794bdc78278U, 0xbe939733bf23d3ddU,
  0x3ce7aab43e724abfU, 0x3e5154a23ea5fd2eU, 0x3ec487433ef8b5c3U, 0x3ebf15f13f03dfceU,
  0xbdfb69dc3e0ec888U, 0xbe468ea2be0a631cU, 0xbdd96ebdbe2cbc31U, 0x3e9125a4be5c2ab2U,
  0x3ee99e9b3d811512U, 0xbea68c18bd1a9654U, 0x3f04e660bded1d49U, 0x3e823e043e4c8e73U,
  0xbee04456bf076c96U, 0xbdf19d7abe1ea913U, 0x3dd49af7bcd9a9abU, 0xbd9be5ddbd5a7815U,
  0xbd09a1e53dd6bdbeU, 0x3e1151973eb8b0a8U, 0xbe2019233dc667cfU, 0x3dbe5e85be8c896dU,
  0xbe6b0e163e35138dU, 0x3ea2a284bd666065U, 0x3e801b0f3e4b8764U, 0x3ecdb10b3ed8cba5U,
  0x3f1a7c97bdd9328dU, 0xbe8ad6523d3a8fdaU, 0x3e7d543d3e2968f4U, 0xbcd57c3a3d8498a3U,
  0xbe2192583c3e2cb2U, 0xbe82fbe9bdb1b7a1U, 0xbd89185abe0c6992U, 0x3e90e879be3c01faU,
  0x3eaac1d93e869db8U, 0x3e6cedabbd012966U, 0xbe51db19bccf083cU, 0x3d3e01b2be581c9bU,
  0xbd177242be29dfebU, 0x3eb320f8b9a261e4U, 0x3e044379be95fd6dU, 0x3cc97f453e5dadccU,
  0x3f1d2efcbdf83a9eU, 0x3d9c89d13f4c10d3U, 0x3e433e393c45fe49U, 0x3e8a502f3eb7431fU,
  0xbe970532be815720U, 0x3cdd0b1cbed1fc76U, 0x3dc60a903d4d7b91U, 0xbead4289bd436f06U,
  0xbd7fa9d4bded146fU, 0xbc68d1f3bc70a3e1U, 0xbeafbcd4bd27cad1U, 0xbe4c0bccbf2fe5daU,
  0x3e033ed93f45e34dU, 0xbe8aedd83d92e460U, 0x3dde7a423e0321e1U, 0x3eb76b2e3cdc3208U,
  0x3ee7fcf8be056924U, 0xbe8a46943e0b5892U, 0x3d3631843cf995d1U, 0x3eb028943d561813U,
  0xbd23d6003e7321ccU, 0xbd9f4bc23e6b5a24U, 0xbc1bdfddbd84952cU, 0x3d098a5d3d862682U,
  0x3bf105c13eeb57acU, 0x3e212c0bbf046b3fU, 0xbe93d44c3e5fb40cU, 0xbe9d4ee03e2acb47U,
  0x3e1fdcc3be436965U, 0x3e6e0f383de20158U, 0x3e77f0f43ea1d9efU, 0x3e00e30b3e8e2eb7U,
  0x3d04cbecbe4ba0faU, 0xbc83311fbed02b44U, 0x3db7112fbe00693fU, 0xbe55391b3d3c913bU,
  0xbb42ae30bd86075eU, 0xbec66d1f3e11fc5cU, 0xbe01838bbac3b8a3U, 0xbd7025443e3c2ad6U,
  0x3e75254e3e97ebc9U, 0x3e928b6abe1a954cU, 0x3e87d8d73d69ba81U, 0x3c48b28b3f5230c5U,
  0xbe28954b3e190061U, 0xbd90616d3d9d6557U, 0xbe52e3a4be407ff7U, 0x3ddc105dbe379252U,
  0xbd803c8d3ed2fee7U, 0xbebcf007bedd13e7U, 0x3eb49326bd64dccbU, 0x3d9dc3d23c64a8abU,
  0x3db232d83eb1ff28U, 0x3e897bc93bdbebeaU, 0x3ea9100c3e6db975U, 0x3dd342e73dd07841U,
  0xbf0193c9be8cfbbaU, 0x3d9f44813e631eeeU, 0x3d663a45be9c134dU, 0xbe1a0125bdb4b780U,
  0x3d9424eebd4b3b40U, 0x3ebf70c5bd56fdf7U, 0x3e61a3b13dfe87ebU, 0xbed01f1dbd945a1bU,
  0xbf373a9abf17b60aU, 0x3db32e27beec0ae7U, 0x3f10e25b3ea4f0a2U, 0x3e1f11523f2876f2U,
  0x3ebe1755bd2b637aU, 0x3e4004b2bd4d75a4U, 0x3d2a6d163e054121U, 0xbe816f9ebe835c62U,
  0x3daf70393c8d988dU, 0xbdc4cac53da2f3c9U, 0x3c70f080bd8be578U, 0xbe807693be42fab0U,
  0xbe2a368ebd377022U, 0xbd90ba773e70d1d0U, 0xbc56da423e360862U, 0xbe1a2e2dbe1d29a1U,
  0xbedd1527bf43eae7U, 0x3c9e989ebf035741U, 0x3d94ffb9be9a5a82U, 0xbeda5e143ed28ab9U,
  0x3f3db53dbe332e91U, 0xbf0c680ebe840dc6U, 0x3d521a35bdd455daU, 0x3e8a70e33e08ead1U,
  0x3e8d62073ea04126U, 0xbee4c1cb3e037d08U, 0xbe240d20bd96e6caU, 0xbd9ebe66bdaca473U,
  0x3f06f5f53e88f2afU, 0x3d40e3bf3e71a66eU, 0xbf16dc14bd909c2eU, 0xbf709f3bbf491220U,
  0x3ddb2033bf18a342U, 0x3e93d08b3d6a5de5U, 0xbe4f2c72be9a7106U, 0x3e9e32413e27c9e6U,
  0x3eabcf883dd62f99U, 0x3e1a4f9f3cfe2493U, 0x3e83b37f3eb9a2a0U, 0xbe71226d3e8ebfdaU,
  0xbec8097bbe831841U, 0xbe278cb7beeadd11U, 0x3daa44cfbd38d70bU, 0x3eee58f13dc61a71U,
  0x3ec9f1253e1addcfU, 0xbe5c584c3e8f3c3eU, 0x3e9193f03e1d6897U, 0x3e8bba293e8fea81U,
  0x3dd7ee30bc864bd3U, 0xbbdd9e86be751f4fU, 0xbea87b98bdc9efd2U, 0xbf18c1f6bec14e9dU,
  0xbf0e1216bf0c8336U, 0x3eb76b8bbeb40c39U, 0x3f0b676f3e97c2f6U, 0xbc9731f83ec9d3d3U,
  0x3da4a716beac094aU, 0x3e92f6713d6ddeb2U, 0x3d375aeb3eb3c21cU, 0x3ccec55e3de5a168U,
  0x3db130803d0369aeU, 0xbe3b2c893d958901U, 0x3e74e347bf4f74afU, 0x3ea827ba3eac64acU,
  0x3eeea07f3e82b1f0U, 0xbdb1c07bbd7f8cfaU, 0x3dc892403d2d8f0cU, 0x3ca12057be2f1f1fU,
  0xbea65706be16efb1U, 0x3e1b457dbea87e06U, 0xbe8d900b3e15faf6U, 0xbe7a09e7be92029eU,
  0x3dbe566abe0b7559U, 0x3f11fe643f6f6e3aU, 0xbea40e6b3dad9fe9U, 0xbb8887b2bda84978U,
  0x3ccc20d2be936e22U, 0x3d4a3e4dbea7c475U, 0x3e359a62be4c992fU, 0x3e1660c93e5f56bdU,
  0x3e96a13a3e314b6fU, 0x3ed2e0553dc6487eU, 0xbf3a14e5be03bde7U, 0xbe768684bef6ead5U,
  0x3df8975abeb3d81bU, 0x3f09fcab3edd7c27U, 0x3ef5dfbc3ec2484aU, 0x3e46c11a3dea616cU,
  0xbe2669c43ed3b230U, 0x3ea5840cbe897698U, 0x3e13e4223e3557a7U, 0x3f1afff23e483a76U,
  0x3e41d2213e3cafedU, 0xbe6b63263e4f5d36U, 0xbe8431debf0760a7U, 0xbbaa1e9e3dc2d99aU,
  0x3e6af898b8e6eeb8U, 0xbd25d2663e7b8754U, 0xbd8e06ad3e74fdb3U, 0x3e045fafbe82a1f6U,
  0x3e52fc1d3dcf0057U, 0x3f0a80393e8ff109U, 0xbde194523d85a8b6U, 0xbeb4da7abede455fU,
  0x3f04347dbf070f57U, 0xbde34ead3ebcc9b6U, 0x3d72ee973dbedebcU, 0x3eac2b553e4fa4a9U,
  0xbde6a750bd4286a0U, 0x3c8a9776bed51ca6U, 0xbe4a16bdbe4bfc3cU, 0xbdf6f3aebef09eadU,
  0xbd7942c3bde07302U, 0xbe513546bdeb7a30U, 0xbe237521bd106d70U, 0x3e85c9ed3d2e6ff7U,
  0x3d89b71dbdf3fa14U, 0x3d91aa183b85783dU, 0x3e09100e3dc0bce9U, 0x3d402749be275f66U,
  0x3e2756193eb20198U, 0x3df13cec3e7cef6cU, 0xbe3dc22abe095b9bU, 0xbeb9e7fdbe6219b3U,
  0xbe055f47bcf21d67U, 0x3e16a4f93e80f32cU, 0xbcaf685e3e2e7ba7U, 0xbe47a47d3db74028U,
  0x3ecdc1113b7df5d9U, 0x3e840d983e5a4cd9U, 0xbea6d84fbf0e1882U, 0xbe161f5e3db901bcU,
  0xbe975f3abf3ea65eU, 0x3d0a7499bd9dbc28U, 0x3e5533e5be3c2d0fU, 0x3df16e86bd5cb049U,
  0x3ecc75943e45e2a5U, 0x3e5a82cc3da9f535U, 0xbf1b29eabe92dab5U, 0xbd1e6e43bea06606U,
  0x3f0c24613e04b26cU, 0xbea7c752bdd57305U, 0xbdd7c9b5bd291a33U, 0xbe8d190abf0afccdU,
  0x3f09223abd462a9dU, 0x3e953d7d3e52fb1bU, 0x3ea5f4733e4fae36U, 0xbeee79afbde88335U,
  0x3d36f4ecbe58a5a1U, 0x3e689d333ef895b8U, 0xbd8443533ecd466cU, 0xbf553e76bec02e70U,
  0x3d8b7f1fbe546154U, 0x3e4faaf63e6b401eU, 0x3e5621513eba3a9dU, 0x3ef655da3ec430c1U,
  0xbc2e65303eae4d42U, 0x3e71bbc53c71c715U, 0x3db45bda3e9e6959U, 0x3f2a28bc3e9e1946U,
  0x3e9abcfc3ead4abfU, 0xbe3e2d143dd82cb4U, 0xbe1063833d6ec299U, 0x3d6af6eebdf48c16U,
  0x3e0ad192bd623703U, 0xbe8fdd59bec65d30U, 0x3de691d8bed0a6a0U, 0xbe062e84bdd43189U,
  0xbe987fe13c741f32U, 0x3e123ce8be8c32ceU, 0x3d345a52bd6700adU, 0xbda5dc803ef369bcU,
  0xbe4d52e83f1ec39aU, 0x3e7f4d3d3cca4f38U, 0x3dac5b2f3e3af8ffU, 0x3e27f1f33eb2f5e3U,
  0x3e2d91e63e41d0d9U, 0x3f1adc573f10720eU, 0x3f6330803f41631fU, 0x3eea9e3b3f3d78ccU,
  0x3e119bf03e988ceaU, 0xbe05fe103e2c7f3aU, 0xbd37146b3d9d4dddU, 0xbd58eaaf3de35816U,
  0xbd5ca6893d8eeacaU, 0xbe773612bd7f3204U, 0xbf0bcec1be56faf6U, 0x3dcf01e9bd197412U,
  0xbecc7d843f15bbddU, 0xbed6d5f3bf080fcdU, 0xbe94abe2bec16ab4U, 0xbec7c458be7971e6U,
  0xbf00f3c6bec2733cU, 0xbe8c6856bf274c26U, 0x3ce200733e61226eU, 0xbd61af0dbe2627f2U,
  0xbe853e31bde30ec9U, 0x3d9be337bd91fd97U, 0x3e81b7a5be2b214cU, 0x3eb3db653e8a7123U,
  0x3dc2a9d93e8881f5U, 0x3ec4323ebe35fdd9U, 0x39cc5cf03e26a8e9U, 0x3da71b8e3e7bdf06U,
  0x3e2cb4ac3ae9db1aU, 0x3e3cdc233d187d26U, 0x3d10fd50ba9d65d0U, 0x3e26285a3e179867U,
  0xbf1c5d6ebe22ce45U, 0xbf350859bf984552U, 0xbf7ae1c3be9228f8U, 0xbf00bfb5bf137e5aU,
  0xbf0ad3a8bf16d707U, 0xbe1ae7e73e1c60ccU, 0xbe026a9b3dc370beU, 0x3e3ef4023d2a4860U,
  0x3bf40ba83e4bd4c9U, 0x3d4704443d87c633U, 0x3d91ba9e3e58396dU, 0x3ebfb4fb3e85c699U,
  0x3e0e93a53edd0bdfU, 0x3dbeeb3a3be5720fU, 0x3e82694e3e7fb929U, 0x3d6cfedd3dea3e46U,
  0xbc9c70853df9171eU, 0x3e8c29bcbd2fdbf1U, 0x3dbd2805bb9b47a8U, 0xbd3fd596bcef702cU,
  0x3f133bed3f0711baU, 0x3e0e09b9bd83338bU, 0xbe2af5b53cee172cU, 0xbe0f5331bc3886ddU,
  0xbe6658483c47d176U, 0x3dcd868c3ce61023U, 0xbe570995be4dbcb4U, 0xbd07c87fbe946b19U,
  0x3e3a15753de1861dU, 0x3e52ca153dead8acU, 0x3d639e453dd47a2fU, 0x3c785c9c3dd6b4cdU,
  0x3dafb8923d8f6ce4U, 0xbed12d4abe56f02eU, 0xbe04cda63d09acc0U, 0x3e7e17bdbd4d51ccU,
  0x3e803e5f3ea8695fU, 0x3e8f11da3e164898U, 0x3eb672b03d9f3eefU, 0x39172c443e9b8541U,
  0x3e8a16cd3e4315fcU, 0xbeb5dc42be3510ddU, 0xbed9823fbe073df6U, 0xbe8a8291beaae5afU,
  0xbda3e9abbe0c4061U, 0xbd9febe0be0b9991U, 0xbc6e49313e7cb6afU, 0xbe896c1fbe858eb4U,
  0x3e65afbdbf3835f1U, 0x3f1dd1a6bebd988bU, 0x3e6a55893dc56b79U, 0xbce9de0e3cccac0aU,
  0xbd9b4fc4bdb53245U, 0xbded7121bb719be6U, 0x3d4413b3bd983138U, 0xbdefd1f53d89b58cU,
  0xbd890b7cbe107180U, 0x3f2f49f6bd8e7328U, 0x3e0f6e113f3c637fU, 0xbe27d8323df8d54cU,
  0xbd073994bd93f610U, 0x3e5ff57ebe166c16U, 0xbe980248bb4c73dcU, 0xbe88867dbd627a76U,
  0x3eba39d6bde1119fU, 0x3dafc28c3d3de873U, 0xbe03ec273c92955fU, 0x3d75c7debda24a45U,
  0xbd9defc73d70eee9U, 0x3e664fb5bd8bf66bU, 0x3edb855e3e4b5a61U, 0x3e6d79f83ec3b0edU,
  0xbe67d81ebe013c54U, 0xbe9a8a84be885386U, 0xbea16ed5be8a6b7bU, 0xbde1447cbea27913U,
  0x3e90dd17be0b769eU, 0xbd1e453fbddd14c5U, 0xbce8515d3ee56670U, 0x3e2fcb7d3ded2b80U,
  0x3e8f9dcb3c1c6d98U, 0x3e0bcddb3de4f31bU, 0x3cfcb5423d1afebeU, 0x3cae657e3e91c9aeU,
  0x3df00cc4bd0b795bU, 0x3e46a8513e2d45b7U, 0x3ded0b753e83dd0fU, 0x3e0b33df3e8e32b2U,
  0x3da101a23e8a51e6U, 0x3d50efdc3f02ac52U, 0x3ea737873f1909d1U, 0x3e2afc12be2a5f9dU,
  0x3f562eb23f03115dU, 0x3ec3c21b3f4818a4U, 0x3edc679e3f115949U, 0x3dbccf0f3e87e3f6U,
  0xbed42e9ebe82f35fU, 0x3d97aab9bdd7ce4dU, 0x3d823c723e813b1bU, 0xbdcf87b83d4c7e06U,
  0x3e7af52abd078655U, 0x3e997da93dbb77fdU, 0x3f65980a3e2fef8aU, 0x3eb1d0d63f3e1a2aU,
  0x3e4f613c3ed8a9c2U, 0xbeeeae7b3b0b9503U, 0xba761cd5be9bde63U, 0x3dee68c53eb5f1bfU,
  0x3d607f19bda5606bU, 0xbed56b61be850d30U, 0xbeaf8f41be70a045U, 0x3e66bfebbeaa6780U,
  0x3e6c5f4f3ea85c0aU, 0xbe2597eabe08205eU, 0x3c3b3965bcc71ea7U, 0xbc9bc872bd2db0f5U,
  0xbe0cc13abe65d1b7U, 0xbda26724bd5b99cfU, 0xbeb989fd3d9bcca7U, 0x3e0d550fbe2d7400U,
  0x3f04f8293ddc35ffU, 0x3cd53a2c3cc25eeeU, 0xbe61becebce39848U, 0xbd9720f8bd30af71U,
  0xbd6518b2bd805317U, 0x3f131d993e216bb0U, 0xbdf20d953eb38977U, 0xbe15d6b73e37e67aU,
  0x3ef6032e3eb1d2ecU, 0x3ec0ceca3ee0bacfU, 0x3d8613503de7f594U, 0xbcf975453dfdd812U,
  0xbc3f64adbe5e3cb0U, 0x3d708269be8b5381U, 0xbdf65cb73ea7fc75U, 0xbe01ed09bc52bb5aU,
  0x3e10d86e3e300f41U, 0x3e299f7fbda72f20U, 0xbda843a7bdd869d8U, 0x3e6896afbda955d9U,
  0x3e46ef7d3eae2967U, 0xbed9ca07bb4e699aU, 0xbe048a28be708c82U, 0x3e0dcd3e3d921926U,
  0x3f18d48c3eeb016fU, 0x3ea3b9ae3f759a47U, 0x3cdbb2283d8ab1a4U, 0xbe5810eb3e554568U,
  0x3d10901abd25b1b2U, 0x3c4a80aebd273baeU, 0x3c2b9f13be1237d0U, 0x3d660825bd4385c5U,
  0xbe5eab28b9beccdcU, 0xbef4d048bcd8151aU, 0xbd47095cbef1c81aU, 0xbe06a6b03e0358a1U,
  0x3e9c3b043e657bb4U, 0x3eb50caa3efbc158U, 0x3e978ed03e79348bU, 0x3dae9d6a3e03aa5eU,
  0x3e9b5bfe3e16d498U, 0xbd3b5d3f3e9b36dcU, 0x3e0c7bd2be385fe9U, 0x3edf07c03e4d58adU,
  0x3f1178af3f09c217U, 0x3f12da773ecad8c4U, 0xbef142143ed4f70eU, 0xbeec05dabee95b4cU,
  0x3d60f2e1bdb67fb2U, 0x3c24de1dbe13ba5dU, 0xbdda50a53c09d6c9U, 0xbe2409d1bd8fe638U,
  0xbb42810dbe78a88fU, 0x3e6ccc173e3a15dcU, 0x3eab0af2be497e96U, 0x3df7ee953f0ea258U,
  0x3e5972493e97192eU, 0x3e1c44023e8a248dU, 0xbca093163e40ff14U, 0x3c2c6d003dab4a86U,
  0x3e1583273e433adbU, 0xbf838d7cbe94970eU, 0xbde81cfbbf31dfc0U, 0x3d3ef5093d4682e2U,
  0x3dd6462ebdae5de4U, 0x3c296e363c9a806aU, 0xbde7d5643e60da1cU, 0xbea8012c3e79ff40U,
  0x3ed4bbabbeb24da0U, 0xbe3b5e943de32072U, 0xbe8f362abd1f0a7dU, 0x3bc140313c439e7dU,
  0xbdaac87c3d438a1fU, 0xbd2c97e4bd4a85aaU, 0xbd5dae9abdde683bU, 0xbe7ffbe6bda017f9U,
  0x3de3f0f93e806b54U, 0x3f0e3a853ec52a92U, 0x3f53eb513ecdb651U, 0x3f403c983f3d8424U,
  0x3f4ede3d3f6ef00dU, 0x3f2227653f409888U, 0xbe99f32abe932aa2U, 0xbe9f66c4bd7e58f7U,
  0xbe27e1e33e813ad7U, 0x3d916130becfa48dU, 0xbe8e1be5be050509U, 0xbe742ad2beb42ed3U,
  0x3e405199be0be8deU, 0x3e7e30553e806b6cU, 0xbef955f0be7cf3c0U, 0xbde7a210be92a9a2U,
  0x3e618d4fbbbb08b6U, 0x3e63a0a23e21a08aU, 0x3eacad8d3e784631U, 0xbd8762363ecdec92U,
  0xbe843ffabe9d9fcfU, 0xbf06b9e0bf131e37U, 0xbe932b6dbea8a283U, 0xbec5e8143e89fd82U,
  0xbe22b782be26dbcfU, 0xbecf6a29bea32faeU, 0xbec5ac4ebe533e51U, 0x3e9f65ecbf065306U,
  0x3e44c00e3ed25ab8U, 0x3e6ae0483e787576U, 0x3df0d6173e1a468bU, 0x3e067e473e36c624U,
  0x3ec3e7e13e057166U, 0xbf3156a6bf061214U, 0xbe93d8b4bf545405U, 0x3e108b19be26ef03U,
  0x3e28feb83e71f2bbU, 0x3db5c0123dfd485bU, 0x3dc35ad83e0df689U, 0xb82e9714bba316d4U,
  0x3d066d473e7c9939U, 0x3e13c46c3e411754U, 0x3e06d8323dfab989U, 0x3db5e23dbd09930dU,
  0x3e0cbfd43e06e4e0U, 0x3df1fe943e0320a0U, 0x3da6e6043e1c436fU, 0xbe10c228bca9fb36U,
  0x3e279a94bb9b4f60U, 0x3eed2b11bd8a0c4fU, 0xbef3fac5bcf076d8U, 0xbf79a0b6bea9835bU,
  0x3e1d47adbe9c0d8aU, 0x3eb5203e3eb9eab1U, 0x3e8ec22e3f04a01aU, 0x3e83e4413e462029U,
  0x3ee337183d9d3cf2U, 0x3faf0c463f83a643U, 0x3f9d394a3fa6d092U, 0x3f9701173f98e30bU,
  0x3ebaf9463f42ec5eU, 0xbeabe02e3ea45cc0U, 0x3ddcf6e8bd4ab40aU, 0x3e7b15633e124f69U,
  0xbcdb4fddbe814c5fU, 0xbf08fd43bf0fe065U, 0xbe435b94beab8fbfU, 0x3e2ed6ea3e1362b6U,
  0xbe394a803e8c2094U, 0x3d34fec7bbd8ad63U, 0x3f1597ca3e19be30U, 0x3e53981a3edc91adU,
  0x3ec144ef3dca48afU, 0x3e3ae6c43ea52eedU, 0x3d82f28d3edacf82U, 0x3c11eee0bedda5b1U,
  0x3eb0a9fb3ecaf9e0U, 0x3e9478f8bb2abf9bU, 0x3ecfff9d3e897b8bU, 0x3e3f3a253e283bdcU,
  0xbda7b462be6b3442U, 0xbd5c83d2be63b904U, 0xbd327368bee3fc70U, 0xbefd73f7bed72f0bU,
  0xbe7b1b70be6ce8b2U, 0xbe8fc907bda9c89cU, 0xbd64b8e2be73293dU, 0xbe70b975be78fb47U,
  0xbe9722123cab03a3U, 0x3f2b78ecbc835a64U, 0x3e5f4fc83f323badU, 0xbe2e56c93dfc7120U,
  0xbbb16601be81a100U, 0x3e8d7a483edd4d33U, 0x3f299f8a3e111b89U, 0xbe7263263ebdb04cU,
  0xbd9dccd9be5435f5U, 0x3ef5828b3f0d8cfeU, 0x3f3885163f237887U, 0x3f51fdfa3eb95397U,
  0x3e383b82bc64ea45U, 0x3ed88c3cbbee84ffU, 0x3f4acdf73edf1770U, 0xbecbb0933ec44998U,
  0xbe3211b93e972bc4U, 0xbee8dcf93e1e61d4U, 0x3d7290193db4d57fU, 0xbef9ad18beff0fecU,
  0x3df021353e1aaa85U, 0x3ee72b333e9e070dU, 0x3f8122b73f2dea7fU, 0x3f1c30a23f3d0974U,
  0x3bcc2a473e2352b7U, 0x3e99086d3e3c38b7U, 0xbe7979c3beac96faU, 0xbd56126d3e75df5eU,
  0xbf4c7ccdbc22f782U, 0xbdc2568abe2d0ec6U, 0x3ecc20903e455432U, 0xbdcc6d72bda80555U,
  0x3f73c3783ee158e7U, 0x3e153e293e9ab81fU, 0xbeb3ea7abd575d2eU, 0xbec45ad6bf2cc55dU,
  0x3a9eb503befa5215U, 0x3ebc55f33e12b614U, 0x3ef559623ed35bafU, 0x3f3108633f4a6851U,
  0x3e0a4f463ee33edfU, 0x3ee81aaf3ecfa5c4U, 0x3ec939013edc7f80U, 0xbdc8516c3e67912bU,
  0xbdfc8064beaae654U, 0x3ed30f3e3c127823U, 0x3d75403dbdb01f22U, 0x3e2112d03e37aec0U,
  0x3f14cc12bd569603U, 0x3efa25703f2ea0ecU, 0x3d509c6a3ec224a1U, 0x3f24ccdebea30e86U,
  0x3f2ff3993f896ee6U, 0x3bd642a13ea8e391U, 0xbddb630fbe980b94U, 0x3e7019703d43dae9U,
  0xbebb22873dfc1fa6U, 0x3e0bab48bf0c7cfbU, 0x3ed2f8933f21b759U, 0x3dc3aff23dcb29faU,
  0x3eba16cf3e73bce7U, 0xbd49ae0e3e897918U, 0xbe21bda9be9220c1U, 0xbeaa4a84bf044576U,
  0x3ea3ec4abe5e660aU, 0x3ef769a33ea46fe4U, 0x3e816a833ef5e96aU, 0xbf4fd411bd002e59U,
  0xbf083098bf268077U, 0xbe248acdbdc46214U, 0x3e9bcc3f3ea325e2U, 0x3f2317d43efc105bU,
  0xbe86bc13bc987828U, 0x3da0e0433dfc77acU, 0x3f097e653e24cf33U, 0x3f1a86ed3f09691fU,
  0xbddea7d33e7341a5U, 0xbde72499bdac3edaU, 0x3f6a3eb03df55fb3U, 0x3f1bca453f4924c4U,
  0x3edc408a3e8831caU, 0xbf079b3c3d4d49a0U, 0x3ee28ccc3d55d1e3U, 0x3f1d78f43f36fbd1U,
  0x3d83aac73ec6e7afU, 0x3ef00a3b3f583721U, 0xbac6b70c3f179e37U, 0x3c5456113ea37a22U,
  0xbf1b0f4ebeadb9e4U, 0xbf28a88cbf343055U, 0xbf109aa5bf1b907bU, 0xbe96c103bd96f09aU,
  0x3ef636c23ea59fa1U, 0x3f3f39b83ef72e45U, 0xbce917473f39653dU, 0x3e0880f0bdb51a20U,
  0x3ea4fb593e4452c9U, 0xbe6704f13da6806cU, 0xbec6af6c3db01c6cU, 0x3ee3ba52be1dd67bU,
  0x3f1e189c3f03258cU, 0x3d562c29be4181aeU, 0xbdcda727be974459U, 0x3c1f19903f06d6c5U,
  0x3eca631b3d8f196aU, 0x3ea554203ea49d29U, 0x3cd7feb7ba596e15U, 0x3e19c94abdf6117dU,
  0x3eba76e13e87f375U, 0xbe9b00b93ca77169U, 0x3b60740bbe7f8344U, 0x3e839d793ed2c7caU,
  0x3e0fa64bbdc814f0U, 0xbd128c16be08de0dU, 0x3e4539133e0ee2f6U, 0x3e973e5f3d628a7aU,
  0x3ed0947d3edb0e2bU, 0x3e1924913efd24e7U, 0xbe61c987bc1291f2U, 0xbdc5f653be6b6971U,
  0xbe3361b63d1b1ed5U, 0xbe3489d7bea6e88aU, 0x3f2457173e5de6bcU, 0x3f5a41c03fade98fU,
  0xbe2f883e3caee093U, 0xbebea18ebe5623b6U, 0xbe8289c5be6ac1c0U, 0xbe8974c3be0d3b4aU,
  0xbe9b404abc92965cU, 0xbdb0308f3edc5666U, 0xbedb74f0be8a30c2U, 0xbe8a3376beb07da3U,
  0x3e03c0e83e6c4070U, 0xbec54ca1bde7612fU, 0x3e1ed0e5be9af886U, 0x3e0970e53d201518U,
  0x3dd39aab3c9d8be7U, 0x3f36929b3f13ea47U, 0xbf05d77b3e8cf4b6U, 0xbf11ae95bf2f4290U,
  0x3e038ca83c93456dU, 0xbc9012e53c4d8ca5U, 0xbe94f01ebeaa9eb3U, 0xbd650505be9b67adU,
  0x3dfac584bdd55e3cU, 0xbf30e7edbf0d5d44U, 0xbe9f2f66be367f17U, 0x3d46ff1c3e4a69caU,
  0x3f41c8c73ef2b8fbU, 0x3eb0a81a3f4a5f52U, 0xbd8da25dbe624ce3U, 0x3e436e083e5f70acU,
  0x3ead94503f22b788U, 0x3f8f3c513f300e87U, 0x3f9cbcbb3fa0f232U, 0xbe78be553db20bf0U,
  0x3f321bb53e2db63aU, 0xbe250d1dbe15c332U, 0x3f4f996bbe1c6444U, 0x3f2cee393f8277f6U,
  0x3fbf74f03f569c04U, 0x3f80ab333fbd9ec8U, 0x3e373bd43e727dfdU, 0xbe1d2f5fbb2f1161U,
  0xbec6d7ee3da74727U, 0xbd3edf19bde1686cU, 0x3e2ce6e43ded22c0U, 0xbc2cc220bb4390ccU,
  0x3d8b07e83eb29c42U, 0x3d2b16ab3d99ebd3U, 0x3eb24e553de07903U, 0x3ee667673e59fbfcU,
  0x3e6858573e23c9f4U, 0xbe7ba258bd9be37fU, 0xbebca39ebece7077U, 0xbc6db969bec99736U,
  0x3e8f41413d472994U, 0xbd67ce2ebcca4d5aU, 0xbdbf607d3c42f67fU, 0xbc3971433ead2969U,
  0x3eefb0ebbbe1587cU, 0x3e404b053b3fd01eU, 0x3f1d03a13ecec1a7U, 0x3ef592d43ea55cdeU,
  0x3e0a0acd3e893607U, 0x3e3db0c23e415e08U, 0x3f5526fcbc0b1b78U, 0x3ed3cc323d4cd466U,
  0x3f4d23c53f0813b5U, 0x3fa5bd193f94ceb9U, 0x3f3092543f234358U, 0x3ee623f03e820011U,
  0xbe8f169e3d33351fU, 0xbdc0d18b3db69dc4U, 0x3eb938213b4f97e0U, 0x3dfe7db23e846e84U,
  0x3e51c2e73e12b5f4U, 0x3f25736f3e839f67U, 0x3de0f545bdd91402U, 0x3da091393df4ec56U,
  0xbdf791bebe698c5cU, 0xbf372712be5c28daU, 0xbea9d193bf032444U, 0x3e0a3c39be8a6ffcU,
  0x3f865ddb3efab56dU, 0x3f86419e3f8fcd08U, 0x3e0164bc3ee44627U, 0x3e4e2b03be3ecbebU,
  0xbccc59323bd7ab20U, 0xbe85feebbe847578U, 0xbe62483abd05877dU, 0xbdfb40f2be48a7adU,
  0x3f146bef3f0e752eU, 0xbd7dc789be3a0669U, 0xbddd2d083da7e48aU, 0xbeaa7cffbe49716fU,
  0x3eb85f30be2630b4U, 0x3f3c9d563f98a64fU, 0x3ecd3a1e3f05d289U, 0xbeb008e2bd8c2253U,
  0xbda0c2a4be9caa8cU, 0x3f281b4a3ec9fc58U, 0x3e7b520a3ef5b978U, 0xbe3a87363de2c0c6U,
  0xbf596aeabee3fa79U, 0xbf06c93cbf31d67cU, 0x3ec23b6fbcac3416U, 0xbdb5ad7e3d1ea77aU,
  0xbe16cfa9bddf1acdU, 0xbe0fbdfabe7a5245U, 0x3d43e6e3bdca58eeU, 0x3e6f24c43e24f215U,
  0x3f0577e83e31dc0aU, 0x3eb3a6a93e41256aU, 0x3f2605643efd3397U, 0x3e8a42333f3aa5d1U,
  0x3e576aa6bdc97eedU, 0x3dd1d6f33e226d18U, 0xbd60febe3cb6bc4eU, 0x3ea1f34b3ea95517U,
  0xbc1144c03da77f6fU,
};


ai_handle g_network_weights_table[1 + 2] = {
  AI_HANDLE_PTR(AI_MAGIC_MARKER),
  AI_HANDLE_PTR(s_network_weights_array_u64),
  AI_HANDLE_PTR(AI_MAGIC_MARKER),
};

